-- 2_weights

DEPTH = 256;

WIDTH = 16;

ADDRESS_RADIX = UNS;

DATA_RADIX = BIN;

CONTENT
BEGIN

0 : 1101100110010010;
1 : 1100110001000010;
2 : 1100110001011111;
3 : 0011001011110000;
4 : 1011101010010101;
5 : 0010011001010110;
6 : 1011011111100000;
7 : 0001011110110010;
8 : 1110001100100001;
9 : 0010000100101000;
10 : 1011001111101100;
11 : 0000100011010110;
12 : 1101000110111011;
13 : 1000110001010111;
14 : 1100001111101110;
15 : 0000111011010100;
16 : 1110001110011100;
17 : 0000110010011101;
18 : 0010010101001011;
19 : 1111010010000000;
20 : 0000000010010011;
21 : 0110000100001010;
22 : 0010111011110110;
23 : 1100110001111010;
24 : 1110010100010000;
25 : 1001000011000000;
26 : 0011110101010001;
27 : 1111110111101110;
28 : 1100101110000110;
29 : 1100111011111010;
30 : 0000110100000101;
31 : 1011111111001000;
32 : 1101111000100101;
33 : 0000011100000101;
34 : 1101101010000100;
35 : 0000101010001110;
36 : 0001011110101000;
37 : 1111011111011100;
38 : 1001010111110110;
39 : 1111111110010100;
40 : 1100001000001000;
41 : 0010011111010000;
42 : 1100111010110001;
43 : 1011001011100011;
44 : 1110010110011100;
45 : 0011101001110111;
46 : 0101010101101000;
47 : 1101011000100010;
48 : 0011010111111011;
49 : 1110000001111111;
50 : 1110110111010110;
51 : 1011000111101110;
52 : 1101010010000100;
53 : 1111101100010011;
54 : 1101010000111011;
55 : 1100111010010100;
56 : 1101010100100110;
57 : 0000110100100001;
58 : 0010011001001011;
59 : 1101111010100001;
60 : 0010100010000011;
61 : 1111010011001010;
62 : 1100010101001000;
63 : 1101011011111001;
64 : 1011111010000101;
65 : 1001010011000111;
66 : 1001100010101110;
67 : 1111110110010000;
68 : 0010010010110011;
69 : 0001010100011111;
70 : 0011010111000000;
71 : 1101111001010101;
72 : 1100111101001100;
73 : 0001001110001100;
74 : 1011010111111011;
75 : 1110111001110101;
76 : 1110101010010110;
77 : 0001010010111101;
78 : 0001101110101010;
79 : 0000100000101010;
80 : 1111010011101000;
81 : 1110011011110000;
82 : 0100001110101001;
83 : 1011101111011111;
84 : 0001011001100111;
85 : 1101111101001000;
86 : 1101011100111100;
87 : 1100110101011011;
88 : 0010100110010000;
89 : 1100001011101111;
90 : 1110001100011110;
91 : 0001111011001001;
92 : 0100111001010110;
93 : 0000001110111110;
94 : 0010010101101100;
95 : 1010011100001010;
96 : 1011100001101100;
97 : 1101010110111001;
98 : 1010011101011001;
99 : 0000000001111100;
100 : 0010101101101101;
101 : 1100000110111111;
102 : 1101011011110000;
103 : 0011111001010100;
104 : 0010101000111000;
105 : 1110000100110010;
106 : 1100111011010001;
107 : 0000100100011110;
108 : 1110000100011100;
109 : 1110010111101000;
110 : 1010001000001100;
111 : 1100001001000010;
112 : 0010101110000011;
113 : 0001101110101011;
114 : 1010010011101000;
115 : 1010100110011111;
116 : 0001100110001010;
117 : 1100111110010000;
118 : 0001111000001011;
119 : 0001001001000111;
120 : 1110110100101000;
121 : 0000100001000000;
122 : 1111110000011000;
123 : 0100001110110110;
124 : 0011000100011011;
125 : 0001010101001000;
126 : 0010001101100101;
127 : 1101110000110011;
128 : 1110001101111101;
129 : 1101111111110110;
130 : 1010100000000001;
131 : 0001011000110110;
132 : 1001010010010000;
133 : 1100010110000000;
134 : 0011000001001001;
135 : 1011000111111100;
136 : 0001000011010001;
137 : 1100011111000101;
138 : 1101011101110110;
139 : 0000100100010110;
140 : 1100111100111000;
141 : 1101011000110101;
142 : 1011011100010100;
143 : 1110110000010100;
144 : 1010000110000010;
145 : 1101000011000011;
146 : 0010101011101011;
147 : 0100101111011000;
148 : 1111010000000010;
149 : 0010010111011010;
150 : 1101111010100001;
151 : 1111101000110110;
152 : 0011111101110000;
153 : 0000000000000111;
154 : 0001100010101011;
155 : 0001100100101001;
156 : 1110000101101000;
157 : 1101011101110001;
158 : 1011000101011011;
159 : 1101001110111001;
160 : 0001110011000001;
161 : 1111111001001011;
162 : 0010111111110101;
163 : 1101001000011110;
164 : 0010111111111100;
165 : 0001100111011110;
166 : 1000110001110100;
167 : 1001011010110111;
168 : 1100000110011011;
169 : 1011010000101000;
170 : 0010100000110101;
171 : 1100010011011010;
172 : 1101100111100001;
173 : 1111001001111100;
174 : 1110010011111111;
175 : 1111100110111111;
176 : 0000111111011100;
177 : 0000010100100011;
178 : 0011101010000101;
179 : 1011110101001101;
180 : 0011101110110110;
181 : 1011111010010000;
182 : 1100011101111101;
183 : 1111110000111100;
184 : 1111110111010110;
185 : 0001101100101100;
186 : 1011000000001011;
187 : 1001010100101110;
188 : 1101000000101101;
189 : 0010110000001011;
190 : 0100100111011100;
191 : 0001101110001011;
192 : 0001100100000011;
193 : 1110100110111011;
194 : 0001100100000010;
195 : 0010110000011010;
196 : 0000110101101110;
197 : 1100011101011110;
198 : 1011101101101110;
199 : 1101110101010100;

END;